#ifndef __HX83102E_PARAM_H__
#define __HX83102E_PARAM_H__
#include <linux/types.h>
#include <linux/kernel.h>

#define EXTEND_BRIGHTNESS	306
#define UI_MAX_BRIGHTNESS	255
#define UI_DEFAULT_BRIGHTNESS	128

struct lcd_seq_info {
	const unsigned char	*cmd;
	unsigned int	len;
	unsigned int	sleep;
};

static const unsigned char SEQ_SET_B9_PW[] = {
	0xB9,
	0x83, 0x10, 0x2E,
};

static const unsigned char SEQ_SET_E9_OTP_SETTING[] = {
	0xE9,
	0xCD,
};

static const unsigned char SEQ_SET_BB_OTP_SETTING[] = {
	0xBB,
	0x01,
};

static const unsigned char SEQ_SET_E9_OTP_SETTING2[] = {
	0xE9,
	0x00,
};

static const unsigned char SEQ_HX83102E_BL[] = {
	0x51,
	0x00, 0x00,
};

static const unsigned char SEQ_HX83102E_BLON[] = {
	0x53,
	0x24,
};

static const unsigned char SEQ_HX83102E_BL_PWM_PREQ[] = {
	0xC9,
	0x04, 0x0B, 0x5D,
};

static const unsigned char SEQ_SET_D2_VOP[] = {
	0xD2,
	0x2B, 0x2B,
};

static const unsigned char SEQ_HX83102E_BL_PAD[] = {
	0xD9,
	0x04, 0x01, 0x02,
};

static const unsigned char SEQ_SET_D5_GIP_FORWARD[] = {
	0xD5,
	0x03, 0x02, 0x01, 0x00, 0x07, 0x06, 0x05, 0x04,
	0x18, 0x18, 0x24, 0x24, 0x19, 0x19, 0x18, 0x18,
	0x19, 0x19, 0x21, 0x20, 0x23, 0x22, 0x18, 0x18,
	0x18, 0x18, 0x18, 0x18, 0x18, 0x18, 0x18, 0x18,
	0x18, 0x18, 0x18, 0x18, 0x18, 0x18, 0x18, 0x18,
	0x18, 0x18, 0x18, 0x18,
};

static const unsigned char SEQ_SET_D6_GIP_BACKWARD[] = {
	0xD6,
	0x04, 0x05, 0x06, 0x07, 0x00, 0x01, 0x02, 0x03,
	0x18, 0x18, 0x24, 0x24, 0x19, 0x19, 0x19, 0x19,
	0x18, 0x18, 0x22, 0x23, 0x20, 0x21, 0x18, 0x18,
	0x18, 0x18, 0x18, 0x18, 0x18, 0x18, 0x18, 0x18,
	0x18, 0x18, 0x18, 0x18, 0x18, 0x18, 0x18, 0x18,
	0x18, 0x18, 0x18, 0x18,
};

static const unsigned char SEQ_SET_B4_TIMING[] = {
	0xB4,
	0x94, 0x74, 0x01, 0x01, 0x94, 0x74, 0x68, 0x50,
	0x01, 0x8E, 0x01, 0x58, 0x00, 0xFF, 0x00, 0xFF,
};

static const unsigned char SEQ_SET_D3_GIP0[] = {
	0xD3,
	0x00, 0x00, 0x00, 0x00, 0x01, 0x04, 0x00, 0x08,
	0x08, 0x27, 0x27, 0x22, 0x2F, 0x23, 0x23, 0x04,
	0x04, 0x32, 0x10, 0x21, 0x00, 0x21, 0x32, 0x10,
	0x1F, 0x00, 0x02, 0x32, 0x17, 0xFD, 0x00, 0x10,
	0x00, 0x00, 0x20, 0x30, 0x01, 0x55, 0x21, 0x38,
	0x01, 0x55,
};

static const unsigned char SEQ_SET_D1_TP_CTRL[] = {
	0xD1,
	0x67, 0x0C, 0xFF, 0x05,
};

static const unsigned char SEQ_SET_B1_POWER[] = {
	0xB1,
	0x10, 0xFA, 0xAF, 0xAF, 0x2B, 0x2B, 0xC2, 0x57,
	0x4D, 0x36, 0x36, 0x36, 0x36, 0x22, 0x21, 0x15,
	0x00,
};

static const unsigned char SEQ_SET_B2_RESOLUTION[] = {
	0xB2,
	0x00, 0xB0, 0x47, 0xD0, 0x00, 0x14, 0x3C, 0x2E,
};

static const unsigned char SEQ_SET_E0_ANALOG_GAMMA[] = {
	0xE0,
	0x00, 0x04, 0x0E, 0x15, 0x1C, 0x2F, 0x46, 0x4C,
	0x53, 0x4F, 0x69, 0x6E, 0x74, 0x82, 0x80, 0x88,
	0x91, 0xA4, 0xA5, 0x52, 0x5A, 0x65, 0x73, 0x00,
	0x04, 0x0E, 0x15, 0x1C, 0x2F, 0x46, 0x4C, 0x53,
	0x4F, 0x69, 0x6E, 0x74, 0x82, 0x80, 0x88, 0x91,
	0xA4, 0xA5, 0x52, 0x5A, 0x65, 0x73,
};

static const unsigned char SEQ_SET_C0_GAMMA_OPT[] = {
	0xC0,
	0x23, 0x23, 0x22, 0x11, 0xA2, 0x10, 0x00, 0x80,
	0x00, 0x00, 0x08, 0x00, 0x63, 0x63,
};

static const unsigned char SEQ_SET_CC_NORMALLY_BLACK[] = {
	0xCC,
	0x02,
};

static const unsigned char SEQ_SET_C8_CP[] = {
	0xC8,
	0x00, 0x04, 0x04, 0x00, 0x00, 0x82,
};

static const unsigned char SEQ_SET_BF_GAS[] = {
	0xBF,
	0xFC, 0x85, 0x80,
};

static const unsigned char SEQ_SET_D0_CASCADE[] = {
	0xD0,
	0x07, 0x04, 0x05,
};

static const unsigned char SEQ_SET_BD_BANK01[] = {
	0xBD,
	0x01,
};

static const unsigned char SEQ_SET_D3_GIP1[] = {
	0xD3,
	0x01, 0x00, 0xFC, 0x00, 0x00, 0x11, 0x10, 0x00,
	0x0E,
};

static const unsigned char SEQ_SET_BD_BANK02[] = {
	0xBD,
	0x02,
};

static const unsigned char SEQ_SET_B4_GAMMA_BIAS[] = {
	0xB4,
	0x4E,
};

static const unsigned char SEQ_SET_BF_VCOM[] = {
	0xBF,
	0xF2,
};

static const unsigned char SEQ_SET_D8_GIP[] = {
	0xD8,
	0xFF, 0xFF, 0xFF, 0xFF, 0xFF, 0xF0, 0xFF, 0xFF,
	0xFF, 0xFF, 0xFF, 0xF0,
};

static const unsigned char SEQ_SET_BD_BANK00[] = {
	0xBD,
	0x00,
};

static const unsigned char SEQ_SET_E7_TOUCH_BANK0[] = {
	0xE7,
	0x12, 0x13, 0x02, 0x02, 0x2B, 0x00, 0x0E, 0x0E,
	0x00, 0x02, 0x28, 0x84, 0x1E, 0x76, 0x01, 0x27,
	0x00, 0x00, 0x00, 0x00, 0x17, 0x00,
};

static const unsigned char SEQ_SET_E7_TOUCH_BANK1[] = {
	0xE7,
	0x02, 0x30, 0x01, 0x90, 0x0D, 0xEA, 0x0E,
};

static const unsigned char SEQ_SET_E7_TOUCH_BANK2[] = {
	0xE7,
	0xFF, 0x01, 0xFD, 0x01, 0x00, 0x00, 0x22, 0x00,
	0x00, 0x00, 0x00, 0x00, 0x00, 0x00, 0x00, 0x00,
	0x00, 0x00, 0x00, 0x00, 0x00, 0x00, 0x00, 0x00,
	0x81, 0x00, 0x02, 0x40
};

static const unsigned char SEQ_SET_B9_CLOSE_PW[] = {
	0xB9,
	0x00, 0x00, 0x00,
};

static const unsigned char SEQ_SLEEP_OUT[] = {
	0x11,
};

static const unsigned char SEQ_DISPLAY_ON[] = {
	0x29,
};

static const unsigned char SEQ_DISPLAY_OFF[] = {
	0x28,
	0x00, 0x00
};

static const unsigned char SEQ_SLEEP_IN[] = {
	0x10,
	0x00, 0x00
};

/* platform brightness <-> bl reg */
static unsigned int brightness_table[EXTEND_BRIGHTNESS + 1] = {
	0,
	0, 37, 48, 59, 71, 82, 94, 105, 117, 128, /* 2: 37 */
	140, 151, 162, 174, 185, 197, 208, 220, 231, 243,
	254, 266, 277, 288, 300, 311, 323, 334, 346, 357,
	369, 380, 392, 403, 414, 426, 437, 449, 460, 472,
	483, 495, 506, 518, 529, 540, 552, 563, 575, 586,
	598, 609, 621, 632, 643, 655, 666, 678, 689, 701,
	712, 724, 735, 747, 758, 769, 781, 792, 804, 815,
	827, 838, 850, 861, 873, 884, 895, 907, 918, 930,
	941, 953, 964, 976, 987, 999, 1010, 1021, 1033, 1044,
	1056, 1067, 1079, 1090, 1102, 1113, 1124, 1136, 1147, 1159,
	1170, 1182, 1193, 1205, 1216, 1228, 1239, 1250, 1262, 1273,
	1285, 1296, 1308, 1319, 1331, 1342, 1354, 1365, 1376, 1388,
	1399, 1411, 1422, 1434, 1445, 1457, 1468, 1480, 1495, 1510, /* 128: 1480 */
	1526, 1541, 1556, 1572, 1587, 1602, 1618, 1633, 1649, 1664,
	1679, 1695, 1710, 1725, 1741, 1756, 1772, 1787, 1802, 1818,
	1833, 1848, 1864, 1879, 1894, 1910, 1925, 1941, 1956, 1971,
	1987, 2002, 2017, 2033, 2048, 2064, 2079, 2094, 2110, 2125,
	2140, 2156, 2171, 2187, 2202, 2217, 2233, 2248, 2263, 2279,
	2294, 2309, 2325, 2340, 2356, 2371, 2386, 2402, 2417, 2432,
	2448, 2463, 2479, 2494, 2509, 2525, 2540, 2555, 2571, 2586,
	2602, 2617, 2632, 2648, 2663, 2678, 2694, 2709, 2724, 2740,
	2755, 2771, 2786, 2801, 2817, 2832, 2847, 2863, 2878, 2894,
	2909, 2924, 2940, 2955, 2970, 2986, 3001, 3017, 3032, 3047,
	3063, 3078, 3093, 3109, 3124, 3139, 3155, 3170, 3186, 3201,
	3216, 3232, 3247, 3262, 3278, 3293, 3309, 3324, 3339, 3355,
	3370, 3385, 3401, 3416, 3432, 3432, 3432, 3432, 3432, 3432, /* 255: 3432 */
	3432, 3432, 3432, 3432, 3432, 3432, 3432, 3432, 3432, 3432,
	3432, 3432, 3432, 3432, 3432, 3432, 3432, 3432, 3432, 3432,
	3432, 3432, 3432, 3432, 3432, 3432, 3432, 3432, 3432, 3432,
	3432, 3432, 3432, 3432, 3432, 3432, 3432, 3432, 3432, 3432,
	3432, 3432, 3432, 3432, 3432, 4094,
};
#endif /* __HX83102E_PARAM_H__ */
